TRT-8402-EntropyCalibration2
input_array: 3caa54fc
input: 3e104d34
onnx::Mul_763: 3c010a14
onnx::Conv_764: 3d982e30
input.4: 3edadbfe
onnx::Mul_767: 3c010a14
onnx::Add_768: 3e93cca7
input.8: 3e918090
input.12: 3f372eb2
onnx::Mul_772: 3c010a14
onnx::Add_773: 3e97392f
input.16: 3f0fb08a
input.20: 3ec1891f
onnx::Mul_777: 3c010a14
onnx::Conv_778: 3e9688c2
input.24: 3e7c086f
input.28: 3e3b8d63
onnx::Mul_783: 3c010a14
onnx::Conv_784: 3d01bf93
onnx::Add_1373: 3e207468
input.32: 3e7481fd
input.36: 3df842c3
onnx::Mul_790: 3c00ef70
onnx::Conv_791: 3c8ffe96
onnx::Add_1379: 3e1e8568
input.40: 3e871899
input.44: 3dc0dae8
onnx::Mul_797: 3c01d0d3
onnx::Conv_798: 3c922061
onnx::Add_1385: 3e879cff
input.48: 3ebf7184
input.52: 3dfc2912
onnx::Mul_804: 3c00f9f4
onnx::Conv_805: 3d74692b
input.56: 3e843810
input.60: 3df1a11c
onnx::Mul_810: 3c00e9c8
onnx::Conv_811: 3c9b3fe9
onnx::Add_1397: 3e028754
input.64: 3e90886f
input.68: 3dfd9e8e
onnx::Mul_817: 3c00c527
onnx::Conv_818: 3c93189e
onnx::Add_1403: 3e0808eb
input.72: 3e983503
input.76: 3daa530e
onnx::Mul_824: 3c009811
onnx::Conv_825: 3c40072e
onnx::Add_1409: 3e0a3756
input.80: 3eb2c57b
input.84: 3db6f3b5
onnx::Mul_831: 3c010a14
onnx::Conv_832: 3d6efac7
input.88: 3e2643a2
onnx::Mul_835: 3c010a14
onnx::ReduceMean_836: 3de54239
input.92: 3dac24f5
input.96: 3d839b2e
onnx::Mul_839: 3c00ca3b
onnx::Conv_840: 3d635911
onnx::Sigmoid_841: 3d251555
onnx::Mul_842: 3bfebdaa
input.100: 3d950e00
input.104: 3e606e75
input.108: 3d9e084e
onnx::Mul_848: 3c011221
onnx::Conv_849: 3d260919
input.112: 3e645405
onnx::Mul_852: 3c010a14
onnx::ReduceMean_853: 3d9a2a02
input.116: 3d36b569
input.120: 3de4cde2
onnx::Mul_856: 3c00f427
onnx::Conv_857: 3d662c9d
onnx::Sigmoid_858: 3d72dae9
onnx::Mul_859: 3bfdc0ef
input.124: 3ccd1f8d
onnx::Add_1427: 3dbcc335
input.128: 3e5b6126
input.132: 3d97530e
onnx::Mul_866: 3c011221
onnx::Conv_867: 3ce61df4
input.136: 3e3681b6
onnx::Mul_870: 3c010a14
onnx::ReduceMean_871: 3e2b34ba
input.140: 3d1ff837
input.144: 3da4f9f4
onnx::Mul_874: 3c00c4aa
onnx::Conv_875: 3d68b7c4
onnx::Sigmoid_876: 3d704476
onnx::Mul_877: 3bf9ca0b
input.148: 3cbde53b
onnx::Add_1436: 3db4420f
input.152: 3e583ea3
input.156: 3d85c284
onnx::Mul_884: 3c00f191
onnx::Conv_885: 3d01209b
input.160: 3e2fd341
onnx::Mul_888: 3c010a14
onnx::ReduceMean_889: 3e198d3f
input.164: 3d198251
input.168: 3db98a8a
onnx::Mul_892: 3c02818e
onnx::Conv_893: 3d8f467b
onnx::Sigmoid_894: 3d7d44f9
onnx::Mul_895: 3bfbae92
input.172: 3d05b946
onnx::Add_1445: 3d8e8ef1
input.176: 3e55e417
input.180: 3d9524e9
onnx::Mul_902: 3c00cdb3
onnx::Conv_903: 3d0169f1
input.184: 3e29a091
onnx::Mul_906: 3c010a14
onnx::ReduceMean_907: 3dc36c4d
input.188: 3d0c8ace
input.192: 3dbc46d5
onnx::Mul_910: 3c05d91a
onnx::Conv_911: 3d9299ee
onnx::Sigmoid_912: 3d43f102
onnx::Mul_913: 3c00274b
input.196: 3d03d4df
onnx::Add_1454: 3da6ddb2
input.200: 3e60c88d
input.204: 3d939ba2
onnx::Mul_920: 3c00f1e0
onnx::Conv_921: 3d13d691
input.208: 3e1e1058
onnx::Mul_924: 3c010a14
onnx::ReduceMean_925: 3daf17ba
input.212: 3d1aab90
input.216: 3d4aba28
onnx::Mul_928: 3c009132
onnx::Conv_929: 3d411d17
onnx::Sigmoid_930: 3d622e1b
onnx::Mul_931: 3bec5ff1
input.220: 3cbe21eb
onnx::Add_1463: 3d74ce92
input.224: 3e614329
input.228: 3d9093ad
onnx::Mul_938: 3c011223
onnx::Conv_939: 3d25443a
input.232: 3db8f631
onnx::Mul_942: 3c010a14
onnx::ReduceMean_943: 3dc6f1ef
input.236: 3cbd341e
input.240: 3d8932e2
onnx::Mul_946: 3c01c9ed
onnx::Conv_947: 3d0033a9
onnx::Sigmoid_948: 3d479d69
onnx::Mul_949: 3bf3946b
input.244: 3cc339ce
input.248: 3e517ace
input.252: 3d8c58b7
onnx::Mul_955: 3c00f187
onnx::Conv_956: 3cffb222
input.256: 3e34fe42
onnx::Mul_959: 3c010a14
onnx::ReduceMean_960: 3e24bbd7
input.260: 3cf8e3ad
input.264: 3da17991
onnx::Mul_963: 3c08a24a
onnx::Conv_964: 3d91cda6
onnx::Sigmoid_965: 3d8dccd5
onnx::Mul_966: 3c02d373
input.268: 3cb35a04
onnx::Add_1481: 3da58afc
input.272: 3e57341a
input.276: 3d8bd09f
onnx::Mul_973: 3c01120c
onnx::Conv_974: 3cf70a08
input.280: 3e3f5133
onnx::Mul_977: 3c010a14
onnx::ReduceMean_978: 3da4dddc
input.284: 3d288902
input.288: 3dd2dc99
onnx::Mul_981: 3c02114e
onnx::Conv_982: 3dc1bbf8
onnx::Sigmoid_983: 3d9db8a9
onnx::Mul_984: 3c015852
input.292: 3ce7ab76
onnx::Add_1490: 3dd10a1c
input.296: 3e62175f
input.300: 3d91e263
onnx::Mul_991: 3c011219
onnx::Conv_992: 3d16cbfa
input.304: 3e448fb5
onnx::Mul_995: 3c010a14
onnx::ReduceMean_996: 3defcfd9
input.308: 3d21bc49
input.312: 3dd8f185
onnx::Mul_999: 3c010b62
onnx::Conv_1000: 3d905c48
onnx::Sigmoid_1001: 3dd002de
onnx::Mul_1002: 3c0090b6
input.316: 3d1c3482
onnx::Add_1499: 3dcdb2c6
input.320: 3e6ced8e
input.324: 3d8669c1
onnx::Mul_1009: 3c00f163
onnx::Conv_1010: 3d00fe1f
input.328: 3e49f9ba
onnx::Mul_1013: 3c010a14
onnx::ReduceMean_1014: 3e141d89
input.332: 3d21a099
input.336: 3dc4db95
onnx::Mul_1017: 3c0537b2
onnx::Conv_1018: 3dc3f393
onnx::Sigmoid_1019: 3d91703a
onnx::Mul_1020: 3bff0b16
input.340: 3d8e74cc
onnx::Add_1508: 3dfd2697
input.344: 3e902d3b
input.348: 3d91f335
onnx::Mul_1027: 3c00ef93
onnx::Conv_1028: 3d10d7bd
input.352: 3e603cad
onnx::Mul_1031: 3c010a14
onnx::ReduceMean_1032: 3e17bc46
input.356: 3d0dda90
input.360: 3dcc839e
onnx::Mul_1035: 3c0101a2
onnx::Conv_1036: 3d90d446
onnx::Sigmoid_1037: 3d878faa
onnx::Mul_1038: 3c007a09
input.364: 3d4b237d
onnx::Add_1517: 3dce197e
input.368: 3ea6e3f4
input.372: 3d9833ca
onnx::Mul_1045: 3c00f1cb
onnx::Conv_1046: 3cf59a5c
input.376: 3e6543c3
onnx::Mul_1049: 3c010a14
onnx::ReduceMean_1050: 3e1a2738
input.380: 3d08b433
input.384: 3d83fb49
onnx::Mul_1053: 3c01002f
onnx::Conv_1054: 3d66bbd6
onnx::Sigmoid_1055: 3d630c0c
onnx::Mul_1056: 3bf1a7c5
input.388: 3d01396d
onnx::Add_1526: 3dcd9a21
input.392: 3eb27ca3
input.396: 3d94dfd4
onnx::Mul_1063: 3c00f1bd
onnx::Conv_1064: 3cedbbb3
input.400: 3e1296d9
onnx::Mul_1067: 3c010a14
onnx::ReduceMean_1068: 3e1eaaf2
input.404: 3d2c6ba2
input.408: 3da68872
onnx::Mul_1071: 3c05d7a9
onnx::Conv_1072: 3d90d0b2
onnx::Sigmoid_1073: 3d5d6ac1
onnx::Mul_1074: 3c011dde
input.412: 3d968419
onnx::Add_1535: 3dffb9f0
input.416: 3ec51dff
input.420: 3d81353f
onnx::Mul_1081: 3c00f1df
onnx::Conv_1082: 3d016f5d
input.424: 3e4e81f6
onnx::Mul_1085: 3c010a14
onnx::ReduceMean_1086: 3e54bdea
input.428: 3cdb7313
input.432: 3d5e38c6
onnx::Mul_1089: 3c0086ed
onnx::Conv_1090: 3d9147ce
onnx::Sigmoid_1091: 3d281d90
onnx::Mul_1092: 3bedf4ef
input.436: 3c9e1cda
onnx::Add_1544: 3dfaae79
input.440: 3ec7a793
input.444: 3d52c8b6
onnx::Mul_1099: 3c0111d7
onnx::Conv_1100: 3ce4aea0
input.448: 3e08c909
onnx::Mul_1103: 3c010a14
onnx::ReduceMean_1104: 3e0ae0ab
input.452: 3d1d2e0d
input.456: 3d2eeb48
onnx::Mul_1107: 3a9b9521
onnx::Conv_1108: 3c04b643
onnx::Sigmoid_1109: 3c97eb84
onnx::Mul_1110: 3ac1790c
input.460: 3d886742
input.464: 3e375db6
input.468: 3d77a5e6
onnx::Mul_1116: 3c0111ea
onnx::Conv_1117: 3cb113d2
input.472: 3e33210e
onnx::Mul_1120: 3c010a14
onnx::ReduceMean_1121: 3d93a056
input.476: 3d1f8c9a
input.480: 3dc9f380
onnx::Mul_1124: 3c087265
onnx::Conv_1125: 3d910c35
onnx::Sigmoid_1126: 3d893db3
onnx::Mul_1127: 3c014d4a
input.484: 3d3ab532
onnx::Add_1562: 3d83a488
input.488: 3e3ebaec
input.492: 3d82ace6
onnx::Mul_1134: 3c0111f8
onnx::Conv_1135: 3d027bbd
input.496: 3e47f660
onnx::Mul_1138: 3c010a14
onnx::ReduceMean_1139: 3e557169
input.500: 3d58b6cb
input.504: 3de64f69
onnx::Mul_1142: 3c021321
onnx::Conv_1143: 3dc3736a
onnx::Sigmoid_1144: 3d9afd93
onnx::Mul_1145: 3c0080a8
input.508: 3d59a32c
onnx::Add_1571: 3da329d5
input.512: 3e46d8ed
input.516: 3d8411b3
onnx::Mul_1152: 3c00ef21
onnx::Conv_1153: 3cba54a2
input.520: 3e65a1a2
onnx::Mul_1156: 3c010a14
onnx::ReduceMean_1157: 3e34cb2b
input.524: 3d393d82
input.528: 3e157289
onnx::Mul_1160: 3c0f20d9
onnx::Conv_1161: 3d977211
onnx::Sigmoid_1162: 3d8a4bb0
onnx::Mul_1163: 3c00c3e1
input.532: 3dade4a7
onnx::Add_1580: 3d747da4
input.536: 3e5d164a
input.540: 3d8f31cc
onnx::Mul_1170: 3c0110d4
onnx::Conv_1171: 3cbc5d45
input.544: 3e430831
onnx::Mul_1174: 3c010a14
onnx::ReduceMean_1175: 3de04da2
input.548: 3d1a54b8
input.552: 3e32478c
onnx::Mul_1178: 3c03d6b6
onnx::Conv_1179: 3dc478ea
onnx::Sigmoid_1180: 3d94aaaf
onnx::Mul_1181: 3c011666
input.556: 3d6733f2
onnx::Add_1589: 3d9a4c6d
input.560: 3e53d088
input.564: 3d9eaf2f
onnx::Mul_1188: 3c00e998
onnx::Conv_1189: 3cabd0ab
input.568: 3e49e552
onnx::Mul_1192: 3c010a14
onnx::ReduceMean_1193: 3e149f83
input.572: 3d17ee46
input.576: 3e2b335d
onnx::Mul_1196: 3c021416
onnx::Conv_1197: 3dc10e85
onnx::Sigmoid_1198: 3d9a73db
onnx::Mul_1199: 3c02e785
input.580: 3dbc0a9f
onnx::Add_1598: 3d9d4a4e
input.584: 3e73f384
input.588: 3d9d7cab
onnx::Mul_1206: 3c01108d
onnx::Conv_1207: 3ce710bb
input.592: 3e1a2b93
onnx::Mul_1210: 3c010a14
onnx::ReduceMean_1211: 3e5ffbae
input.596: 3d652ebc
input.600: 3e367de4
onnx::Mul_1214: 3c05fbe4
onnx::Conv_1215: 3dbefc88
onnx::Sigmoid_1216: 3da35eb5
onnx::Mul_1217: 3c00f24b
input.604: 3d9cb0eb
onnx::Add_1607: 3dc34935
input.608: 3e87cffa
input.612: 3dad3cd6
onnx::Mul_1224: 3c011211
onnx::Conv_1225: 3cc0774b
input.616: 3e4b4f1b
onnx::Mul_1228: 3c010a14
onnx::ReduceMean_1229: 3e472634
input.620: 3d3725e7
input.624: 3e2c74db
onnx::Mul_1232: 3c02d572
onnx::Conv_1233: 3dc07395
onnx::Sigmoid_1234: 3dd91a47
onnx::Mul_1235: 3c01ad5c
input.628: 3daa9561
onnx::Add_1616: 3e0c2e81
input.632: 3ea5f57e
input.636: 3db55cca
onnx::Mul_1242: 3c011220
onnx::Conv_1243: 3ca80e36
input.640: 3e3207df
onnx::Mul_1246: 3c010a14
onnx::ReduceMean_1247: 3e635f63
input.644: 3d890e5e
input.648: 3e4592e5
onnx::Mul_1250: 3c01f3c3
onnx::Conv_1251: 3e14d5c6
onnx::Sigmoid_1252: 3e123a5f
onnx::Mul_1253: 3c01f399
input.652: 3e2bfc62
onnx::Add_1625: 3e30e8d8
input.656: 3ec295d8
input.660: 3db99e06
onnx::Mul_1260: 3c011131
onnx::Conv_1261: 3cc4fd64
input.664: 3e596678
onnx::Mul_1264: 3c010a14
onnx::ReduceMean_1265: 3e680e74
input.668: 3dc04f82
input.672: 3e897814
onnx::Mul_1268: 3c07fbc6
onnx::Conv_1269: 3dc029e5
onnx::Sigmoid_1270: 3e6ab186
onnx::Mul_1271: 3c01709f
input.676: 3dce6e23
onnx::Add_1634: 3e179e8a
input.680: 3ee68427
input.684: 3dc8bcf9
onnx::Mul_1278: 3c01121f
onnx::Conv_1279: 3ca49b47
input.688: 3e85b00b
onnx::Mul_1282: 3c010a14
onnx::ReduceMean_1283: 3e4354c6
input.692: 3d8d4def
input.696: 3e82f0c7
onnx::Mul_1286: 3c01d2cb
onnx::Conv_1287: 3dc5dc4e
onnx::Sigmoid_1288: 3e62e435
onnx::Mul_1289: 3c01620f
input.700: 3daba78c
onnx::Add_1643: 3e4fcd99
input.704: 3f0d958a
input.708: 3de7b872
onnx::Mul_1296: 3c011222
onnx::Conv_1297: 3ced0235
input.712: 3e47ef0a
onnx::Mul_1300: 3c010a14
onnx::ReduceMean_1301: 3e7d7296
input.716: 3d4f600a
input.720: 3ea5082e
onnx::Mul_1304: 3c073bd3
onnx::Conv_1305: 3e15956a
onnx::Sigmoid_1306: 3e5b36cf
onnx::Mul_1307: 3c00f0d3
input.724: 3e1d856d
onnx::Add_1652: 3e842aaa
input.728: 3f2a079b
input.732: 3dee08c4
onnx::Mul_1314: 3c010a14
onnx::Conv_1315: 3cf782d1
input.736: 3e86862f
onnx::Mul_1318: 3c010a14
onnx::ReduceMean_1319: 3e3d5de3
input.740: 3d2d0807
input.744: 3e7a5025
onnx::Mul_1322: 3c021426
onnx::Conv_1323: 3e1a9564
onnx::Sigmoid_1324: 3e7432bd
onnx::Mul_1325: 3c0111da
input.748: 3d32a42c
onnx::Add_1661: 3e99b3ac
input.752: 3f73954e
input.756: 3e313177
onnx::Mul_1332: 3c010a14
onnx::Conv_1333: 3d6c7818
input.760: 3e6b79fc
onnx::Mul_1336: 3c010a14
onnx::ReduceMean_1337: 3dedeb21
input.764: 3d13f946
input.768: 3deb614a
onnx::Mul_1340: 3c040d83
onnx::Conv_1341: 3d6e1cf7
onnx::Sigmoid_1342: 3daf2f70
onnx::Mul_1343: 3c0266bd
input.772: 3cae3cb0
onnx::Add_1670: 3e56d5bc
input.776: 3f7adaa9
input.780: 3e90c2b5
onnx::Mul_1350: 3c010a14
onnx::GlobalAveragePool_1351: 3d29033c
onnx::Flatten_1352: 3c45f5bf
dense_out: 3d97bccb
